unsigned char complex_model_onnx[] = {
  0x08, 0x0c, 0x12, 0x06, 0x6d, 0x69, 0x6e, 0x69, 0x6f, 0x73, 0x3a, 0xe3,
  0x01, 0x0a, 0x1e, 0x0a, 0x01, 0x58, 0x0a, 0x01, 0x57, 0x12, 0x01, 0x59,
  0x1a, 0x0b, 0x6d, 0x61, 0x74, 0x6d, 0x75, 0x6c, 0x5f, 0x6e, 0x6f, 0x64,
  0x65, 0x22, 0x06, 0x4d, 0x61, 0x74, 0x4d, 0x75, 0x6c, 0x0a, 0x19, 0x0a,
  0x01, 0x59, 0x0a, 0x01, 0x42, 0x12, 0x02, 0x59, 0x32, 0x1a, 0x08, 0x61,
  0x64, 0x64, 0x5f, 0x6e, 0x6f, 0x64, 0x65, 0x22, 0x03, 0x41, 0x64, 0x64,
  0x0a, 0x18, 0x0a, 0x02, 0x59, 0x32, 0x12, 0x01, 0x5a, 0x1a, 0x09, 0x72,
  0x65, 0x6c, 0x75, 0x5f, 0x6e, 0x6f, 0x64, 0x65, 0x22, 0x04, 0x52, 0x65,
  0x6c, 0x75, 0x12, 0x0c, 0x43, 0x6f, 0x6d, 0x70, 0x6c, 0x65, 0x78, 0x4d,
  0x6f, 0x64, 0x65, 0x6c, 0x2a, 0x3b, 0x08, 0x04, 0x08, 0x03, 0x10, 0x01,
  0x22, 0x30, 0xcd, 0xcc, 0xcc, 0x3d, 0xcd, 0xcc, 0x4c, 0x3e, 0xcd, 0xcc,
  0xcc, 0xbd, 0xcd, 0xcc, 0x4c, 0xbe, 0xcd, 0xcc, 0xcc, 0x3d, 0x9a, 0x99,
  0x99, 0x3e, 0x00, 0x00, 0x00, 0x3f, 0xcd, 0xcc, 0xcc, 0xbd, 0xcd, 0xcc,
  0x4c, 0x3e, 0x00, 0x00, 0x00, 0x00, 0xcd, 0xcc, 0xcc, 0x3e, 0xcd, 0xcc,
  0x4c, 0xbe, 0x42, 0x01, 0x57, 0x2a, 0x17, 0x08, 0x01, 0x08, 0x03, 0x10,
  0x01, 0x22, 0x0c, 0xcd, 0xcc, 0xcc, 0x3d, 0xcd, 0xcc, 0x4c, 0xbe, 0x00,
  0x00, 0x00, 0x3f, 0x42, 0x01, 0x42, 0x5a, 0x13, 0x0a, 0x01, 0x58, 0x12,
  0x0e, 0x0a, 0x0c, 0x08, 0x01, 0x12, 0x08, 0x0a, 0x02, 0x08, 0x01, 0x0a,
  0x02, 0x08, 0x04, 0x62, 0x13, 0x0a, 0x01, 0x5a, 0x12, 0x0e, 0x0a, 0x0c,
  0x08, 0x01, 0x12, 0x08, 0x0a, 0x02, 0x08, 0x01, 0x0a, 0x02, 0x08, 0x03,
  0x42, 0x02, 0x10, 0x0d
};
unsigned int complex_model_onnx_len = 244;
