unsigned char simple_add_onnx[] = {
  0x08, 0x0c, 0x12, 0x06, 0x6d, 0x69, 0x6e, 0x69, 0x6f, 0x73, 0x3a, 0x68,
  0x0a, 0x18, 0x0a, 0x01, 0x58, 0x0a, 0x01, 0x42, 0x12, 0x01, 0x59, 0x1a,
  0x08, 0x61, 0x64, 0x64, 0x5f, 0x6e, 0x6f, 0x64, 0x65, 0x22, 0x03, 0x41,
  0x64, 0x64, 0x12, 0x09, 0x53, 0x69, 0x6d, 0x70, 0x6c, 0x65, 0x41, 0x64,
  0x64, 0x2a, 0x17, 0x08, 0x01, 0x08, 0x03, 0x10, 0x01, 0x22, 0x0c, 0x00,
  0x00, 0x80, 0x3f, 0x00, 0x00, 0x00, 0x40, 0x00, 0x00, 0x40, 0x40, 0x42,
  0x01, 0x42, 0x5a, 0x13, 0x0a, 0x01, 0x58, 0x12, 0x0e, 0x0a, 0x0c, 0x08,
  0x01, 0x12, 0x08, 0x0a, 0x02, 0x08, 0x01, 0x0a, 0x02, 0x08, 0x03, 0x62,
  0x13, 0x0a, 0x01, 0x59, 0x12, 0x0e, 0x0a, 0x0c, 0x08, 0x01, 0x12, 0x08,
  0x0a, 0x02, 0x08, 0x01, 0x0a, 0x02, 0x08, 0x03, 0x42, 0x02, 0x10, 0x0d
};
unsigned int simple_add_onnx_len = 120;
